{
  "version": "1.0",
  "truncation": null,
  "padding": null,
  "added_tokens": [
    {
      "id": 0,
      "content": "<PAD>",
      "single_word": false,
      "lstrip": false,
      "rstrip": false,
      "normalized": false,
      "special": true
    },
    {
      "id": 1,
      "content": "<UNK>",
      "single_word": false,
      "lstrip": false,
      "rstrip": false,
      "normalized": false,
      "special": true
    },
    {
      "id": 2,
      "content": "<BOS>",
      "single_word": false,
      "lstrip": false,
      "rstrip": false,
      "normalized": false,
      "special": true
    },
    {
      "id": 3,
      "content": "<EOS>",
      "single_word": false,
      "lstrip": false,
      "rstrip": false,
      "normalized": false,
      "special": true
    },
    {
      "id": 4,
      "content": "<SEP>",
      "single_word": false,
      "lstrip": false,
      "rstrip": false,
      "normalized": false,
      "special": true
    }
  ],
  "normalizer": null,
  "pre_tokenizer": {
    "type": "ByteLevel",
    "add_prefix_space": false,
    "trim_offsets": true,
    "use_regex": true
  },
  "post_processor": null,
  "decoder": {
    "type": "ByteLevel",
    "add_prefix_space": true,
    "trim_offsets": true,
    "use_regex": true
  },
  "model": {
    "type": "BPE",
    "dropout": null,
    "unk_token": "<UNK>",
    "continuing_subword_prefix": null,
    "end_of_word_suffix": null,
    "fuse_unk": false,
    "byte_fallback": false,
    "ignore_merges": false,
    "vocab": {
      "<PAD>": 0,
      "<UNK>": 1,
      "<BOS>": 2,
      "<EOS>": 3,
      "<SEP>": 4,
      "!": 5,
      "\"": 6,
      "#": 7,
      "$": 8,
      "%": 9,
      "&": 10,
      "'": 11,
      "(": 12,
      ")": 13,
      "*": 14,
      "+": 15,
      ",": 16,
      "-": 17,
      ".": 18,
      "/": 19,
      "0": 20,
      "1": 21,
      "2": 22,
      "3": 23,
      "4": 24,
      "5": 25,
      "6": 26,
      "7": 27,
      "8": 28,
      "9": 29,
      ":": 30,
      ";": 31,
      "<": 32,
      "=": 33,
      ">": 34,
      "?": 35,
      "@": 36,
      "A": 37,
      "B": 38,
      "C": 39,
      "D": 40,
      "E": 41,
      "F": 42,
      "G": 43,
      "H": 44,
      "I": 45,
      "J": 46,
      "K": 47,
      "L": 48,
      "M": 49,
      "N": 50,
      "O": 51,
      "P": 52,
      "Q": 53,
      "R": 54,
      "S": 55,
      "T": 56,
      "U": 57,
      "V": 58,
      "W": 59,
      "X": 60,
      "Y": 61,
      "Z": 62,
      "[": 63,
      "\\": 64,
      "]": 65,
      "^": 66,
      "_": 67,
      "`": 68,
      "a": 69,
      "b": 70,
      "c": 71,
      "d": 72,
      "e": 73,
      "f": 74,
      "g": 75,
      "h": 76,
      "i": 77,
      "j": 78,
      "k": 79,
      "l": 80,
      "m": 81,
      "n": 82,
      "o": 83,
      "p": 84,
      "q": 85,
      "r": 86,
      "s": 87,
      "t": 88,
      "u": 89,
      "v": 90,
      "w": 91,
      "x": 92,
      "y": 93,
      "z": 94,
      "{": 95,
      "|": 96,
      "}": 97,
      "~": 98,
      "¡": 99,
      "¢": 100,
      "£": 101,
      "¤": 102,
      "¥": 103,
      "¦": 104,
      "§": 105,
      "¨": 106,
      "©": 107,
      "ª": 108,
      "«": 109,
      "¬": 110,
      "®": 111,
      "¯": 112,
      "°": 113,
      "±": 114,
      "²": 115,
      "³": 116,
      "´": 117,
      "µ": 118,
      "¶": 119,
      "·": 120,
      "¸": 121,
      "¹": 122,
      "º": 123,
      "»": 124,
      "¼": 125,
      "½": 126,
      "¾": 127,
      "¿": 128,
      "À": 129,
      "Á": 130,
      "Â": 131,
      "Ã": 132,
      "Ä": 133,
      "Å": 134,
      "Æ": 135,
      "Ç": 136,
      "È": 137,
      "É": 138,
      "Ê": 139,
      "Ë": 140,
      "Ì": 141,
      "Í": 142,
      "Î": 143,
      "Ï": 144,
      "Ð": 145,
      "Ñ": 146,
      "Ò": 147,
      "Ó": 148,
      "Ô": 149,
      "Õ": 150,
      "Ö": 151,
      "×": 152,
      "Ø": 153,
      "Ù": 154,
      "Ú": 155,
      "Û": 156,
      "Ü": 157,
      "Ý": 158,
      "Þ": 159,
      "ß": 160,
      "à": 161,
      "á": 162,
      "â": 163,
      "ã": 164,
      "ä": 165,
      "å": 166,
      "æ": 167,
      "ç": 168,
      "è": 169,
      "é": 170,
      "ê": 171,
      "ë": 172,
      "ì": 173,
      "í": 174,
      "î": 175,
      "ï": 176,
      "ð": 177,
      "ñ": 178,
      "ò": 179,
      "ó": 180,
      "ô": 181,
      "õ": 182,
      "ö": 183,
      "÷": 184,
      "ø": 185,
      "ù": 186,
      "ú": 187,
      "û": 188,
      "ü": 189,
      "ý": 190,
      "þ": 191,
      "ÿ": 192,
      "Ā": 193,
      "ā": 194,
      "Ă": 195,
      "ă": 196,
      "Ą": 197,
      "ą": 198,
      "Ć": 199,
      "ć": 200,
      "Ĉ": 201,
      "ĉ": 202,
      "Ċ": 203,
      "ċ": 204,
      "Č": 205,
      "č": 206,
      "Ď": 207,
      "ď": 208,
      "Đ": 209,
      "đ": 210,
      "Ē": 211,
      "ē": 212,
      "Ĕ": 213,
      "ĕ": 214,
      "Ė": 215,
      "ė": 216,
      "Ę": 217,
      "ę": 218,
      "Ě": 219,
      "ě": 220,
      "Ĝ": 221,
      "ĝ": 222,
      "Ğ": 223,
      "ğ": 224,
      "Ġ": 225,
      "ġ": 226,
      "Ģ": 227,
      "ģ": 228,
      "Ĥ": 229,
      "ĥ": 230,
      "Ħ": 231,
      "ħ": 232,
      "Ĩ": 233,
      "ĩ": 234,
      "Ī": 235,
      "ī": 236,
      "Ĭ": 237,
      "ĭ": 238,
      "Į": 239,
      "į": 240,
      "İ": 241,
      "ı": 242,
      "Ĳ": 243,
      "ĳ": 244,
      "Ĵ": 245,
      "ĵ": 246,
      "Ķ": 247,
      "ķ": 248,
      "ĸ": 249,
      "Ĺ": 250,
      "ĺ": 251,
      "Ļ": 252,
      "ļ": 253,
      "Ľ": 254,
      "ľ": 255,
      "Ŀ": 256,
      "ŀ": 257,
      "Ł": 258,
      "ł": 259,
      "Ń": 260,
      "in": 261,
      "en": 262,
      "Ġa": 263,
      "at": 264,
      "on": 265,
      "er": 266,
      "ing": 267,
      "or": 268,
      "ar": 269,
      "Ġs": 270,
      "ed": 271,
      "ion": 272,
      "es": 273,
      "al": 274,
      "el": 275,
      "Ġt": 276,
      "Ġd": 277,
      "is": 278,
      "an": 279,
      "ent": 280,
      "it": 281,
      "ear": 282,
      "ch": 283,
      "re": 284,
      "Ġin": 285,
      "Ġl": 286,
      "Ġm": 287,
      "ro": 288,
      "Ġb": 289,
      "Ġp": 290,
      "Ġan": 291,
      "as": 292,
      "ation": 293,
      "earn": 294,
      "ct": 295,
      "et": 296,
      "Ġc": 297,
      "ce": 298,
      "earning": 299,
      "ic": 300,
      "Ġre": 301,
      "ab": 302,
      "Ġand": 303,
      "Ġf": 304,
      "Ġo": 305,
      "he": 306,
      "im": 307,
      "Ġis": 308,
      "ve": 309,
      "orm": 310,
      "ig": 311,
      "il": 312,
      "ĠL": 313,
      "Ġn": 314,
      "Ġw": 315,
      "ith": 316,
      "Ġlearning": 317,
      "Ġof": 318,
      "em": 319,
      "hat": 320,
      "ment": 321,
      "ti": 322,
      "ut": 323,
      "ers": 324,
      "ran": 325,
      "ur": 326,
      "Ġh": 327,
      "ence": 328,
      "Ġdat": 329,
      "ding": 330,
      "ev": 331,
      "ul": 332,
      "us": 333,
      "ens": 334,
      "Ġst": 335,
      "Ġby": 336,
      "ces": 337,
      "fic": 338,
      "form": 339,
      "iz": 340,
      "ĠA": 341,
      "ĠT": 342,
      "Ġal": 343,
      "Ġto": 344,
      "Ġthe": 345,
      "rans": 346,
      "id": 347,
      "oc": 348,
      "od": 349,
      "om": 350,
      "per": 351,
      "un": 352,
      "els": 353,
      "Ġint": 354,
      "Ġma": 355,
      "ctor": 356,
      "Ġwith": 357,
      "ransform": 358,
      "What": 359,
      "ge": 360,
      "ial": 361,
      "ĠI": 362,
      "ĠR": 363,
      "ine": 364,
      "rom": 365,
      "lig": 366,
      "ns": 367,
      "ra": 368,
      "rti": 369,
      "wor": 370,
      "ĠN": 371,
      "Ġve": 372,
      "Ġsim": 373,
      "ellig": 374,
      "Ġfrom": 375,
      "ficial": 376,
      "ĠTransform": 377,
      "rtificial": 378,
      "work": 379,
      "Ġvector": 380,
      "elligence": 381,
      "AG": 382,
      "ay": 383,
      "iev": 384,
      "ms": 385,
      "riev": 386,
      "ter": 387,
      "vis": 388,
      "Ġen": 389,
      "ener": 390,
      "Ġpro": 391,
      "etwork": 392,
      "ural": 393,
      "odels": 394,
      "ee": 395,
      "ex": 396,
      "eural": 397,
      "ive": 398,
      "put": 399,
      "st": 400,
      "ument": 401,
      "uper": 402,
      "Ġdoc": 403,
      "ity": 404,
      "chine": 405,
      "Ġcon": 406,
      "Ġcom": 407,
      "ĠLearning": 408,
      "Ġnetwork": 409,
      "Ġneural": 410,
      "vised": 411,
      "upervised": 412,
      "Ġdocument": 413,
      "bed": 414,
      "cl": 415,
      "du": 416,
      "le": 417,
      "ow": 418,
      "tent": 419,
      "um": 420,
      "yst": 421,
      "ĠG": 422,
      "Ġem": 423,
      "arity": 424,
      "Ġsyst": 425,
      "Ġtra": 426,
      "rodu": 427,
      "Ġrep": 428,
      "ilarity": 429,
      "Ġdata": 430,
      "ense": 431,
      "ĠIn": 432,
      "ĠRAG": 433,
      "eneration": 434,
      "eep": 435,
      "Ġnetworks": 436,
      "bedding": 437,
      "tention": 438,
      "Ġembedding": 439,
      "Ġsystem": 440,
      "Ġtrain": 441,
      "den": 442,
      "ec": 443,
      "gor": 444,
      "get": 445,
      "kn": 446,
      "os": 447,
      "qu": 448,
      "uil": 449,
      "Ġ(": 450,
      "ĠS": 451,
      "Ġg": 452,
      "Ġr": 453,
      "Ġon": 454,
      "Ġkn": 455,
      "atter": 456,
      "ard": 457,
      "arget": 458,
      "Ġsear": 459,
      "eled": 460,
      "Ġthat": 461,
      "Ġtarget": 462,
      "Ġdense": 463,
      "ents": 464,
      "Ġincl": 465,
      "Ġlab": 466,
      "Ġmul": 467,
      "Ġmodels": 468,
      "Ġbas": 469,
      "Ġbuil": 470,
      "Ġpatter": 471,
      "ithms": 472,
      "Ġhid": 473,
      "Ġstat": 474,
      "cess": 475,
      "Ġalgor": 476,
      "Ġsimilarity": 477,
      "ĠTransformers": 478,
      "ayer": 479,
      "Ġprocess": 480,
      "Ġsystems": 481,
      "Ġknow": 482,
      "Ġsearch": 483,
      "Ġinclu": 484,
      "Ġmulti": 485,
      "Ġpatterns": 486,
      "Ġhidden": 487,
      "Ġalgorithms": 488,
      "age": 489,
      "co": 490,
      "ect": 491,
      "equ": 492,
      "res": 493,
      "rch": 494,
      "tion": 495,
      "telligence": 496,
      "triev": 497,
      "ĠD": 498,
      "ĠM": 499,
      "Ġch": 500,
      "Ġus": 501,
      "Ġex": 502,
      "Ġac": 503,
      "Ġartificial": 504,
      "Ġarch": 505,
      "Ġsu": 506,
      "Ġsel": 507,
      "Ġsequ": 508,
      "aliz": 509,
      "ist": 510,
      "ant": 511,
      "entation": 512,
      "itect": 513,
      "Ġretriev": 514,
      "abas": 515,
      "imiz": 516,
      "ormaliz": 517,
      "igh": 518,
      "Ġdatabas": 519,
      "Ġintelligence": 520,
      "Ġintrodu": 521,
      "ĠNormaliz": 522,
      "Ġcomput": 523,
      "Ġrepres": 524,
      "ĠIntelligence": 525,
      "Ġarchitect": 526,
      "Ġself": 527,
      "ĠNormalization": 528,
      "Ġrepresentation": 529,
      "Au": 530,
      "The": 531,
      "ad": 532,
      "am": 533,
      "achine": 534,
      "ced": 535,
      "de": 536,
      "eed": 537,
      "ech": 538,
      "fi": 539,
      "for": 540,
      "gu": 541,
      "gment": 542,
      "ot": 543,
      "ttention": 544,
      "ure": 545,
      "ver": 546,
      "ward": 547,
      "Ġun": 548,
      "infor": 549,
      "Ġare": 550,
      "ative": 551,
      "ore": 552,
      "ional": 553,
      "estion": 554,
      "elev": 555,
      "anis": 556,
      "angu": 557,
      "Ġmech": 558,
      "ction": 559,
      "etriev": 560,
      "cement": 561,
      "ics": 562,
      "abil": 563,
      "Ġhum": 564,
      "ĠAI": 565,
      "Ġall": 566,
      "unk": 567,
      "Ġmachine": 568,
      "Ġsimul": 569,
      "ĠTransformer": 570,
      "Ġenab": 571,
      "Ġdocuments": 572,
      "ĠGeneration": 573,
      "Ġrelev": 574,
      "Ġprocesses": 575,
      "Ġinclude": 576,
      "Ġchunk": 577,
      "imizing": 578,
      "Ġintroduced": 579,
      "Ġcomputer": 580,
      "Ġarchitecture": 581,
      "Augment": 582,
      "inforcement": 583,
      "anguage": 584,
      "Ġmechanis": 585,
      "etrieval": 586,
      "Ġhuman": 587,
      "Ġrelevant": 588,
      "Augmented": 589,
      "01": 590,
      "201": 591,
      "Artificial": 592,
      "Deep": 593,
      "Machine": 594,
      "Retrieval": 595,
      "Uns": 596,
      "Vas": 597,
      "Yo": 598,
      "ace": 599,
      "aper": 600,
      "bfi": 601,
      "cel": 602,
      "cur": 603,
      "dim": 604,
      "einforcement": 605,
      "gence": 606,
      "gents": 607,
      "han": 608,
      "ict": 609,
      "ific": 610,
      "ke": 611,
      "kens": 612,
      "ll": 613,
      "ly": 614,
      "led": 615,
      "lab": 616,
      "nal": 617,
      "nam": 618,
      "out": 619,
      "ous": 620,
      "pon": 621,
      "ple": 622,
      "red": 623,
      "sw": 624,
      "vers": 625,
      "wan": 626,
      "ximizing": 627,
      "ynam": 628,
      "Ġing": 629,
      "Ġet": 630,
      "Ġ201": 631,
      "ĠVas": 632,
      "ĠYo": 633,
      "ences": 634,
      "Ġas": 635,
      "Ġaut": 636,
      "Ġagents": 637,
      "ates": 638,
      "attention": 639,
      "oning": 640,
      "erates": 641,
      "arge": 642,
      "all": 643,
      "eld": 644,
      "Ġdis": 645,
      "Ġdeep": 646,
      "Ġdec": 647,
      "Ġdynam": 648,
      "ision": 649,
      "Ġlearn": 650,
      "Ġbran": 651,
      "Ġpaper": 652,
      "Ġpred": 653,
      "Ġansw": 654,
      "ast": 655,
      "aset": 656,
      "asoning": 657,
      "Ġcl": 658,
      "Ġcum": 659,
      "ical": 660,
      "Ġreward": 661,
      "Ġrecur": 662,
      "Ġreasoning": 663,
      "Ġfoc": 664,
      "Ġfast": 665,
      "Ġout": 666,
      "head": 667,
      "ĠLayer": 668,
      "ĠLanguage": 669,
      "ĠLarge": 670,
      "Ġwas": 671,
      "Ġhigh": 672,
      "Ġdataset": 673,
      "ulative": 674,
      "ensional": 675,
      "Ġstabil": 676,
      "izes": 677,
      "ĠAttention": 678,
      "ĠAll": 679,
      "Ġtokens": 680,
      "Ġmake": 681,
      "Ġmaximizing": 682,
      "Ġwithout": 683,
      "ĠIs": 684,
      "ĠNeed": 685,
      "ternal": 686,
      "Ġenhan": 687,
      "puts": 688,
      "Ġconver": 689,
      "Ġcompon": 690,
      "Ġembeddings": 691,
      "Ġtrains": 692,
      "Ġtraining": 693,
      "oss": 694,
      "Ġgeneration": 695,
      "Ġlabels": 696,
      "Ġlabeled": 697,
      "Ġbase": 698,
      "Ġbased": 699,
      "Ġbuild": 700,
      "Ġbuilding": 701,
      "Ġstate": 702,
      "Ġknown": 703,
      "Ġknowled": 704,
      "covers": 705,
      "ĠModels": 706,
      "Ġuse": 707,
      "Ġexternal": 708,
      "Ġaccel": 709,
      "Ġsubfi": 710,
      "Ġsequences": 711,
      "Ġretrieving": 712,
      "Ġdatabase": 713,
      "Ġrepresentations": 714,
      "Ġunlab": 715,
      "Ġsimulation": 716,
      "Ġchunking": 717,
      "Ġmechanisms": 718,
      "Unsupervised": 719,
      "dimensional": 720,
      "ictive": 721,
      "wani": 722,
      "Ġingestion": 723,
      "Ġ2017": 724,
      "ĠVaswani": 725,
      "ĠYou": 726,
      "Ġdiscovers": 727,
      "Ġdecision": 728,
      "Ġdynamics": 729,
      "Ġbranch": 730,
      "Ġpredictive": 731,
      "Ġanswer": 732,
      "Ġcumulative": 733,
      "Ġrewards": 734,
      "Ġrecurr": 735,
      "Ġfocus": 736,
      "Ġoutputs": 737,
      "Ġdatasets": 738,
      "Ġstabilizes": 739,
      "Ġenhances": 740,
      "Ġconvergence": 741,
      "Ġcomponents": 742,
      "Ġknowledge": 743,
      "Ġaccelerates": 744,
      "Ġsubfield": 745,
      "Ġunlabeled": 746,
      "AI": 747,
      "LU": 748,
      "Layer": 749,
      "Produ": 750,
      "Reinforcement": 751,
      "Supervised": 752,
      "Transform": 753,
      "Ve": 754,
      "ac": 755,
      "ag": 756,
      "cor": 757,
      "dard": 758,
      "eigh": 759,
      "gn": 760,
      "ip": 761,
      "les": 762,
      "lic": 763,
      "lace": 764,
      "oid": 765,
      "pt": 766,
      "plic": 767,
      "ss": 768,
      "sist": 769,
      "ters": 770,
      "ual": 771,
      "ĠB": 772,
      "ĠC": 773,
      "ĠE": 774,
      "Ġor": 775,
      "inal": 776,
      "ated": 777,
      "ond": 778,
      "onom": 779,
      "arall": 780,
      "Ġso": 781,
      "Ġsp": 782,
      "Ġsem": 783,
      "ess": 784,
      "eline": 785,
      "Ġdes": 786,
      "andard": 787,
      "ition": 788,
      "rection": 789,
      "Ġlay": 790,
      "Ġloss": 791,
      "Ġmod": 792,
      "ross": 793,
      "Ġper": 794,
      "Ġpip": 795,
      "Ġparall": 796,
      "ass": 797,
      "ations": 798,
      "Ġcore": 799,
      "Ġfun": 800,
      "ign": 801,
      "usters": 802,
      "Ġstore": 803,
      "Ġstandard": 804,
      "ĠArtificial": 805,
      "ĠTh": 806,
      "Ġinto": 807,
      "ram": 808,
      "ext": 809,
      "Ġcont": 810,
      "Ġconsist": 811,
      "Ġreplace": 812,
      "Ġstatist": 813,
      "Ġincluding": 814,
      "Ġmultiple": 815,
      "ĠDot": 816,
      "Ġacross": 817,
      "Ġsuch": 818,
      "Ġdatabases": 819,
      "Ġenable": 820,
      "Ġenables": 821,
      "Ġautonom": 822,
      "Ġclusters": 823,
      "Ġdecisions": 824,
      "Ġrecurrent": 825,
      "Ġfocuses": 826,
      "Product": 827,
      "Transformers": 828,
      "Vector": 829,
      "ack": 830,
      "correction": 831,
      "Ġseminal": 832,
      "Ġlayers": 833,
      "Ġpipeline": 834,
      "Ġparallel": 835,
      "Ġfunction": 836,
      "Ġconsists": 837,
      "Ġstatistical": 838,
      "Ġautonomous": 839
    },
    "merges": [
      [
        "i",
        "n"
      ],
      [
        "e",
        "n"
      ],
      [
        "Ġ",
        "a"
      ],
      [
        "a",
        "t"
      ],
      [
        "o",
        "n"
      ],
      [
        "e",
        "r"
      ],
      [
        "in",
        "g"
      ],
      [
        "o",
        "r"
      ],
      [
        "a",
        "r"
      ],
      [
        "Ġ",
        "s"
      ],
      [
        "e",
        "d"
      ],
      [
        "i",
        "on"
      ],
      [
        "e",
        "s"
      ],
      [
        "a",
        "l"
      ],
      [
        "e",
        "l"
      ],
      [
        "Ġ",
        "t"
      ],
      [
        "Ġ",
        "d"
      ],
      [
        "i",
        "s"
      ],
      [
        "a",
        "n"
      ],
      [
        "en",
        "t"
      ],
      [
        "i",
        "t"
      ],
      [
        "e",
        "ar"
      ],
      [
        "c",
        "h"
      ],
      [
        "r",
        "e"
      ],
      [
        "Ġ",
        "in"
      ],
      [
        "Ġ",
        "l"
      ],
      [
        "Ġ",
        "m"
      ],
      [
        "r",
        "o"
      ],
      [
        "Ġ",
        "b"
      ],
      [
        "Ġ",
        "p"
      ],
      [
        "Ġa",
        "n"
      ],
      [
        "a",
        "s"
      ],
      [
        "at",
        "ion"
      ],
      [
        "ear",
        "n"
      ],
      [
        "c",
        "t"
      ],
      [
        "e",
        "t"
      ],
      [
        "Ġ",
        "c"
      ],
      [
        "c",
        "e"
      ],
      [
        "earn",
        "ing"
      ],
      [
        "i",
        "c"
      ],
      [
        "Ġ",
        "re"
      ],
      [
        "a",
        "b"
      ],
      [
        "Ġan",
        "d"
      ],
      [
        "Ġ",
        "f"
      ],
      [
        "Ġ",
        "o"
      ],
      [
        "h",
        "e"
      ],
      [
        "i",
        "m"
      ],
      [
        "Ġ",
        "is"
      ],
      [
        "v",
        "e"
      ],
      [
        "or",
        "m"
      ],
      [
        "i",
        "g"
      ],
      [
        "i",
        "l"
      ],
      [
        "Ġ",
        "L"
      ],
      [
        "Ġ",
        "n"
      ],
      [
        "Ġ",
        "w"
      ],
      [
        "it",
        "h"
      ],
      [
        "Ġl",
        "earning"
      ],
      [
        "Ġo",
        "f"
      ],
      [
        "e",
        "m"
      ],
      [
        "h",
        "at"
      ],
      [
        "m",
        "ent"
      ],
      [
        "t",
        "i"
      ],
      [
        "u",
        "t"
      ],
      [
        "er",
        "s"
      ],
      [
        "r",
        "an"
      ],
      [
        "u",
        "r"
      ],
      [
        "Ġ",
        "h"
      ],
      [
        "en",
        "ce"
      ],
      [
        "Ġd",
        "at"
      ],
      [
        "d",
        "ing"
      ],
      [
        "e",
        "v"
      ],
      [
        "u",
        "l"
      ],
      [
        "u",
        "s"
      ],
      [
        "en",
        "s"
      ],
      [
        "Ġs",
        "t"
      ],
      [
        "Ġb",
        "y"
      ],
      [
        "c",
        "es"
      ],
      [
        "f",
        "ic"
      ],
      [
        "f",
        "orm"
      ],
      [
        "i",
        "z"
      ],
      [
        "Ġ",
        "A"
      ],
      [
        "Ġ",
        "T"
      ],
      [
        "Ġa",
        "l"
      ],
      [
        "Ġt",
        "o"
      ],
      [
        "Ġt",
        "he"
      ],
      [
        "ran",
        "s"
      ],
      [
        "i",
        "d"
      ],
      [
        "o",
        "c"
      ],
      [
        "o",
        "d"
      ],
      [
        "o",
        "m"
      ],
      [
        "p",
        "er"
      ],
      [
        "u",
        "n"
      ],
      [
        "el",
        "s"
      ],
      [
        "Ġin",
        "t"
      ],
      [
        "Ġm",
        "a"
      ],
      [
        "ct",
        "or"
      ],
      [
        "Ġw",
        "ith"
      ],
      [
        "rans",
        "form"
      ],
      [
        "W",
        "hat"
      ],
      [
        "g",
        "e"
      ],
      [
        "i",
        "al"
      ],
      [
        "Ġ",
        "I"
      ],
      [
        "Ġ",
        "R"
      ],
      [
        "in",
        "e"
      ],
      [
        "ro",
        "m"
      ],
      [
        "l",
        "ig"
      ],
      [
        "n",
        "s"
      ],
      [
        "r",
        "a"
      ],
      [
        "r",
        "ti"
      ],
      [
        "w",
        "or"
      ],
      [
        "Ġ",
        "N"
      ],
      [
        "Ġ",
        "ve"
      ],
      [
        "Ġs",
        "im"
      ],
      [
        "el",
        "lig"
      ],
      [
        "Ġf",
        "rom"
      ],
      [
        "fic",
        "ial"
      ],
      [
        "ĠT",
        "ransform"
      ],
      [
        "rti",
        "ficial"
      ],
      [
        "wor",
        "k"
      ],
      [
        "Ġve",
        "ctor"
      ],
      [
        "ellig",
        "ence"
      ],
      [
        "A",
        "G"
      ],
      [
        "a",
        "y"
      ],
      [
        "i",
        "ev"
      ],
      [
        "m",
        "s"
      ],
      [
        "r",
        "iev"
      ],
      [
        "t",
        "er"
      ],
      [
        "v",
        "is"
      ],
      [
        "Ġ",
        "en"
      ],
      [
        "en",
        "er"
      ],
      [
        "Ġp",
        "ro"
      ],
      [
        "et",
        "work"
      ],
      [
        "ur",
        "al"
      ],
      [
        "od",
        "els"
      ],
      [
        "e",
        "e"
      ],
      [
        "e",
        "x"
      ],
      [
        "e",
        "ural"
      ],
      [
        "i",
        "ve"
      ],
      [
        "p",
        "ut"
      ],
      [
        "s",
        "t"
      ],
      [
        "u",
        "ment"
      ],
      [
        "u",
        "per"
      ],
      [
        "Ġd",
        "oc"
      ],
      [
        "it",
        "y"
      ],
      [
        "ch",
        "ine"
      ],
      [
        "Ġc",
        "on"
      ],
      [
        "Ġc",
        "om"
      ],
      [
        "ĠL",
        "earning"
      ],
      [
        "Ġn",
        "etwork"
      ],
      [
        "Ġn",
        "eural"
      ],
      [
        "vis",
        "ed"
      ],
      [
        "uper",
        "vised"
      ],
      [
        "Ġdoc",
        "ument"
      ],
      [
        "b",
        "ed"
      ],
      [
        "c",
        "l"
      ],
      [
        "d",
        "u"
      ],
      [
        "l",
        "e"
      ],
      [
        "o",
        "w"
      ],
      [
        "t",
        "ent"
      ],
      [
        "u",
        "m"
      ],
      [
        "y",
        "st"
      ],
      [
        "Ġ",
        "G"
      ],
      [
        "Ġ",
        "em"
      ],
      [
        "ar",
        "ity"
      ],
      [
        "Ġs",
        "yst"
      ],
      [
        "Ġt",
        "ra"
      ],
      [
        "ro",
        "du"
      ],
      [
        "Ġre",
        "p"
      ],
      [
        "il",
        "arity"
      ],
      [
        "Ġdat",
        "a"
      ],
      [
        "ens",
        "e"
      ],
      [
        "ĠI",
        "n"
      ],
      [
        "ĠR",
        "AG"
      ],
      [
        "ener",
        "ation"
      ],
      [
        "ee",
        "p"
      ],
      [
        "Ġnetwork",
        "s"
      ],
      [
        "bed",
        "ding"
      ],
      [
        "tent",
        "ion"
      ],
      [
        "Ġem",
        "bedding"
      ],
      [
        "Ġsyst",
        "em"
      ],
      [
        "Ġtra",
        "in"
      ],
      [
        "d",
        "en"
      ],
      [
        "e",
        "c"
      ],
      [
        "g",
        "or"
      ],
      [
        "g",
        "et"
      ],
      [
        "k",
        "n"
      ],
      [
        "o",
        "s"
      ],
      [
        "q",
        "u"
      ],
      [
        "u",
        "il"
      ],
      [
        "Ġ",
        "("
      ],
      [
        "Ġ",
        "S"
      ],
      [
        "Ġ",
        "g"
      ],
      [
        "Ġ",
        "r"
      ],
      [
        "Ġ",
        "on"
      ],
      [
        "Ġ",
        "kn"
      ],
      [
        "at",
        "ter"
      ],
      [
        "ar",
        "d"
      ],
      [
        "ar",
        "get"
      ],
      [
        "Ġs",
        "ear"
      ],
      [
        "el",
        "ed"
      ],
      [
        "Ġt",
        "hat"
      ],
      [
        "Ġt",
        "arget"
      ],
      [
        "Ġd",
        "ense"
      ],
      [
        "ent",
        "s"
      ],
      [
        "Ġin",
        "cl"
      ],
      [
        "Ġl",
        "ab"
      ],
      [
        "Ġm",
        "ul"
      ],
      [
        "Ġm",
        "odels"
      ],
      [
        "Ġb",
        "as"
      ],
      [
        "Ġb",
        "uil"
      ],
      [
        "Ġp",
        "atter"
      ],
      [
        "ith",
        "ms"
      ],
      [
        "Ġh",
        "id"
      ],
      [
        "Ġst",
        "at"
      ],
      [
        "ces",
        "s"
      ],
      [
        "Ġal",
        "gor"
      ],
      [
        "Ġsim",
        "ilarity"
      ],
      [
        "ĠTransform",
        "ers"
      ],
      [
        "ay",
        "er"
      ],
      [
        "Ġpro",
        "cess"
      ],
      [
        "Ġsystem",
        "s"
      ],
      [
        "Ġkn",
        "ow"
      ],
      [
        "Ġsear",
        "ch"
      ],
      [
        "Ġincl",
        "u"
      ],
      [
        "Ġmul",
        "ti"
      ],
      [
        "Ġpatter",
        "ns"
      ],
      [
        "Ġhid",
        "den"
      ],
      [
        "Ġalgor",
        "ithms"
      ],
      [
        "a",
        "ge"
      ],
      [
        "c",
        "o"
      ],
      [
        "e",
        "ct"
      ],
      [
        "e",
        "qu"
      ],
      [
        "r",
        "es"
      ],
      [
        "r",
        "ch"
      ],
      [
        "t",
        "ion"
      ],
      [
        "t",
        "elligence"
      ],
      [
        "t",
        "riev"
      ],
      [
        "Ġ",
        "D"
      ],
      [
        "Ġ",
        "M"
      ],
      [
        "Ġ",
        "ch"
      ],
      [
        "Ġ",
        "us"
      ],
      [
        "Ġ",
        "ex"
      ],
      [
        "Ġa",
        "c"
      ],
      [
        "Ġa",
        "rtificial"
      ],
      [
        "Ġa",
        "rch"
      ],
      [
        "Ġs",
        "u"
      ],
      [
        "Ġs",
        "el"
      ],
      [
        "Ġs",
        "equ"
      ],
      [
        "al",
        "iz"
      ],
      [
        "is",
        "t"
      ],
      [
        "an",
        "t"
      ],
      [
        "ent",
        "ation"
      ],
      [
        "it",
        "ect"
      ],
      [
        "Ġre",
        "triev"
      ],
      [
        "ab",
        "as"
      ],
      [
        "im",
        "iz"
      ],
      [
        "orm",
        "aliz"
      ],
      [
        "ig",
        "h"
      ],
      [
        "Ġdat",
        "abas"
      ],
      [
        "Ġint",
        "elligence"
      ],
      [
        "Ġint",
        "rodu"
      ],
      [
        "ĠN",
        "ormaliz"
      ],
      [
        "Ġcom",
        "put"
      ],
      [
        "Ġrep",
        "res"
      ],
      [
        "ĠIn",
        "telligence"
      ],
      [
        "Ġarch",
        "itect"
      ],
      [
        "Ġsel",
        "f"
      ],
      [
        "ĠNormaliz",
        "ation"
      ],
      [
        "Ġrepres",
        "entation"
      ],
      [
        "A",
        "u"
      ],
      [
        "T",
        "he"
      ],
      [
        "a",
        "d"
      ],
      [
        "a",
        "m"
      ],
      [
        "a",
        "chine"
      ],
      [
        "c",
        "ed"
      ],
      [
        "d",
        "e"
      ],
      [
        "e",
        "ed"
      ],
      [
        "e",
        "ch"
      ],
      [
        "f",
        "i"
      ],
      [
        "f",
        "or"
      ],
      [
        "g",
        "u"
      ],
      [
        "g",
        "ment"
      ],
      [
        "o",
        "t"
      ],
      [
        "t",
        "tention"
      ],
      [
        "u",
        "re"
      ],
      [
        "v",
        "er"
      ],
      [
        "w",
        "ard"
      ],
      [
        "Ġ",
        "un"
      ],
      [
        "in",
        "for"
      ],
      [
        "Ġa",
        "re"
      ],
      [
        "at",
        "ive"
      ],
      [
        "or",
        "e"
      ],
      [
        "ion",
        "al"
      ],
      [
        "es",
        "tion"
      ],
      [
        "el",
        "ev"
      ],
      [
        "an",
        "is"
      ],
      [
        "an",
        "gu"
      ],
      [
        "Ġm",
        "ech"
      ],
      [
        "ct",
        "ion"
      ],
      [
        "et",
        "riev"
      ],
      [
        "ce",
        "ment"
      ],
      [
        "ic",
        "s"
      ],
      [
        "ab",
        "il"
      ],
      [
        "Ġh",
        "um"
      ],
      [
        "ĠA",
        "I"
      ],
      [
        "Ġal",
        "l"
      ],
      [
        "un",
        "k"
      ],
      [
        "Ġma",
        "chine"
      ],
      [
        "Ġsim",
        "ul"
      ],
      [
        "ĠTransform",
        "er"
      ],
      [
        "Ġen",
        "ab"
      ],
      [
        "Ġdocument",
        "s"
      ],
      [
        "ĠG",
        "eneration"
      ],
      [
        "Ġr",
        "elev"
      ],
      [
        "Ġprocess",
        "es"
      ],
      [
        "Ġinclu",
        "de"
      ],
      [
        "Ġch",
        "unk"
      ],
      [
        "imiz",
        "ing"
      ],
      [
        "Ġintrodu",
        "ced"
      ],
      [
        "Ġcomput",
        "er"
      ],
      [
        "Ġarchitect",
        "ure"
      ],
      [
        "Au",
        "gment"
      ],
      [
        "infor",
        "cement"
      ],
      [
        "angu",
        "age"
      ],
      [
        "Ġmech",
        "anis"
      ],
      [
        "etriev",
        "al"
      ],
      [
        "Ġhum",
        "an"
      ],
      [
        "Ġrelev",
        "ant"
      ],
      [
        "Augment",
        "ed"
      ],
      [
        "0",
        "1"
      ],
      [
        "2",
        "01"
      ],
      [
        "A",
        "rtificial"
      ],
      [
        "D",
        "eep"
      ],
      [
        "M",
        "achine"
      ],
      [
        "R",
        "etrieval"
      ],
      [
        "U",
        "ns"
      ],
      [
        "V",
        "as"
      ],
      [
        "Y",
        "o"
      ],
      [
        "a",
        "ce"
      ],
      [
        "a",
        "per"
      ],
      [
        "b",
        "fi"
      ],
      [
        "c",
        "el"
      ],
      [
        "c",
        "ur"
      ],
      [
        "d",
        "im"
      ],
      [
        "e",
        "inforcement"
      ],
      [
        "g",
        "ence"
      ],
      [
        "g",
        "ents"
      ],
      [
        "h",
        "an"
      ],
      [
        "i",
        "ct"
      ],
      [
        "i",
        "fic"
      ],
      [
        "k",
        "e"
      ],
      [
        "k",
        "ens"
      ],
      [
        "l",
        "l"
      ],
      [
        "l",
        "y"
      ],
      [
        "l",
        "ed"
      ],
      [
        "l",
        "ab"
      ],
      [
        "n",
        "al"
      ],
      [
        "n",
        "am"
      ],
      [
        "o",
        "ut"
      ],
      [
        "o",
        "us"
      ],
      [
        "p",
        "on"
      ],
      [
        "p",
        "le"
      ],
      [
        "r",
        "ed"
      ],
      [
        "s",
        "w"
      ],
      [
        "v",
        "ers"
      ],
      [
        "w",
        "an"
      ],
      [
        "x",
        "imizing"
      ],
      [
        "y",
        "nam"
      ],
      [
        "Ġ",
        "ing"
      ],
      [
        "Ġ",
        "et"
      ],
      [
        "Ġ",
        "201"
      ],
      [
        "Ġ",
        "Vas"
      ],
      [
        "Ġ",
        "Yo"
      ],
      [
        "en",
        "ces"
      ],
      [
        "Ġa",
        "s"
      ],
      [
        "Ġa",
        "ut"
      ],
      [
        "Ġa",
        "gents"
      ],
      [
        "at",
        "es"
      ],
      [
        "at",
        "tention"
      ],
      [
        "on",
        "ing"
      ],
      [
        "er",
        "ates"
      ],
      [
        "ar",
        "ge"
      ],
      [
        "al",
        "l"
      ],
      [
        "el",
        "d"
      ],
      [
        "Ġd",
        "is"
      ],
      [
        "Ġd",
        "eep"
      ],
      [
        "Ġd",
        "ec"
      ],
      [
        "Ġd",
        "ynam"
      ],
      [
        "is",
        "ion"
      ],
      [
        "Ġl",
        "earn"
      ],
      [
        "Ġb",
        "ran"
      ],
      [
        "Ġp",
        "aper"
      ],
      [
        "Ġp",
        "red"
      ],
      [
        "Ġan",
        "sw"
      ],
      [
        "as",
        "t"
      ],
      [
        "as",
        "et"
      ],
      [
        "as",
        "oning"
      ],
      [
        "Ġc",
        "l"
      ],
      [
        "Ġc",
        "um"
      ],
      [
        "ic",
        "al"
      ],
      [
        "Ġre",
        "ward"
      ],
      [
        "Ġre",
        "cur"
      ],
      [
        "Ġre",
        "asoning"
      ],
      [
        "Ġf",
        "oc"
      ],
      [
        "Ġf",
        "ast"
      ],
      [
        "Ġo",
        "ut"
      ],
      [
        "he",
        "ad"
      ],
      [
        "ĠL",
        "ayer"
      ],
      [
        "ĠL",
        "anguage"
      ],
      [
        "ĠL",
        "arge"
      ],
      [
        "Ġw",
        "as"
      ],
      [
        "Ġh",
        "igh"
      ],
      [
        "Ġdat",
        "aset"
      ],
      [
        "ul",
        "ative"
      ],
      [
        "ens",
        "ional"
      ],
      [
        "Ġst",
        "abil"
      ],
      [
        "iz",
        "es"
      ],
      [
        "ĠA",
        "ttention"
      ],
      [
        "ĠA",
        "ll"
      ],
      [
        "Ġto",
        "kens"
      ],
      [
        "Ġma",
        "ke"
      ],
      [
        "Ġma",
        "ximizing"
      ],
      [
        "Ġwith",
        "out"
      ],
      [
        "ĠI",
        "s"
      ],
      [
        "ĠN",
        "eed"
      ],
      [
        "ter",
        "nal"
      ],
      [
        "Ġen",
        "han"
      ],
      [
        "put",
        "s"
      ],
      [
        "Ġcon",
        "ver"
      ],
      [
        "Ġcom",
        "pon"
      ],
      [
        "Ġembedding",
        "s"
      ],
      [
        "Ġtrain",
        "s"
      ],
      [
        "Ġtrain",
        "ing"
      ],
      [
        "os",
        "s"
      ],
      [
        "Ġg",
        "eneration"
      ],
      [
        "Ġlab",
        "els"
      ],
      [
        "Ġlab",
        "eled"
      ],
      [
        "Ġbas",
        "e"
      ],
      [
        "Ġbas",
        "ed"
      ],
      [
        "Ġbuil",
        "d"
      ],
      [
        "Ġbuil",
        "ding"
      ],
      [
        "Ġstat",
        "e"
      ],
      [
        "Ġknow",
        "n"
      ],
      [
        "Ġknow",
        "led"
      ],
      [
        "co",
        "vers"
      ],
      [
        "ĠM",
        "odels"
      ],
      [
        "Ġus",
        "e"
      ],
      [
        "Ġex",
        "ternal"
      ],
      [
        "Ġac",
        "cel"
      ],
      [
        "Ġsu",
        "bfi"
      ],
      [
        "Ġsequ",
        "ences"
      ],
      [
        "Ġretriev",
        "ing"
      ],
      [
        "Ġdatabas",
        "e"
      ],
      [
        "Ġrepresentation",
        "s"
      ],
      [
        "Ġun",
        "lab"
      ],
      [
        "Ġsimul",
        "ation"
      ],
      [
        "Ġchunk",
        "ing"
      ],
      [
        "Ġmechanis",
        "ms"
      ],
      [
        "Uns",
        "upervised"
      ],
      [
        "dim",
        "ensional"
      ],
      [
        "ict",
        "ive"
      ],
      [
        "wan",
        "i"
      ],
      [
        "Ġing",
        "estion"
      ],
      [
        "Ġ201",
        "7"
      ],
      [
        "ĠVas",
        "wani"
      ],
      [
        "ĠYo",
        "u"
      ],
      [
        "Ġdis",
        "covers"
      ],
      [
        "Ġdec",
        "ision"
      ],
      [
        "Ġdynam",
        "ics"
      ],
      [
        "Ġbran",
        "ch"
      ],
      [
        "Ġpred",
        "ictive"
      ],
      [
        "Ġansw",
        "er"
      ],
      [
        "Ġcum",
        "ulative"
      ],
      [
        "Ġreward",
        "s"
      ],
      [
        "Ġrecur",
        "r"
      ],
      [
        "Ġfoc",
        "us"
      ],
      [
        "Ġout",
        "puts"
      ],
      [
        "Ġdataset",
        "s"
      ],
      [
        "Ġstabil",
        "izes"
      ],
      [
        "Ġenhan",
        "ces"
      ],
      [
        "Ġconver",
        "gence"
      ],
      [
        "Ġcompon",
        "ents"
      ],
      [
        "Ġknowled",
        "ge"
      ],
      [
        "Ġaccel",
        "erates"
      ],
      [
        "Ġsubfi",
        "eld"
      ],
      [
        "Ġunlab",
        "eled"
      ],
      [
        "A",
        "I"
      ],
      [
        "L",
        "U"
      ],
      [
        "L",
        "ayer"
      ],
      [
        "P",
        "rodu"
      ],
      [
        "R",
        "einforcement"
      ],
      [
        "S",
        "upervised"
      ],
      [
        "T",
        "ransform"
      ],
      [
        "V",
        "e"
      ],
      [
        "a",
        "c"
      ],
      [
        "a",
        "g"
      ],
      [
        "c",
        "or"
      ],
      [
        "d",
        "ard"
      ],
      [
        "e",
        "igh"
      ],
      [
        "g",
        "n"
      ],
      [
        "i",
        "p"
      ],
      [
        "l",
        "es"
      ],
      [
        "l",
        "ic"
      ],
      [
        "l",
        "ace"
      ],
      [
        "o",
        "id"
      ],
      [
        "p",
        "t"
      ],
      [
        "p",
        "lic"
      ],
      [
        "s",
        "s"
      ],
      [
        "s",
        "ist"
      ],
      [
        "t",
        "ers"
      ],
      [
        "u",
        "al"
      ],
      [
        "Ġ",
        "B"
      ],
      [
        "Ġ",
        "C"
      ],
      [
        "Ġ",
        "E"
      ],
      [
        "Ġ",
        "or"
      ],
      [
        "in",
        "al"
      ],
      [
        "at",
        "ed"
      ],
      [
        "on",
        "d"
      ],
      [
        "on",
        "om"
      ],
      [
        "ar",
        "all"
      ],
      [
        "Ġs",
        "o"
      ],
      [
        "Ġs",
        "p"
      ],
      [
        "Ġs",
        "em"
      ],
      [
        "es",
        "s"
      ],
      [
        "el",
        "ine"
      ],
      [
        "Ġd",
        "es"
      ],
      [
        "an",
        "dard"
      ],
      [
        "it",
        "ion"
      ],
      [
        "re",
        "ction"
      ],
      [
        "Ġl",
        "ay"
      ],
      [
        "Ġl",
        "oss"
      ],
      [
        "Ġm",
        "od"
      ],
      [
        "ro",
        "ss"
      ],
      [
        "Ġp",
        "er"
      ],
      [
        "Ġp",
        "ip"
      ],
      [
        "Ġp",
        "arall"
      ],
      [
        "as",
        "s"
      ],
      [
        "ation",
        "s"
      ],
      [
        "Ġc",
        "ore"
      ],
      [
        "Ġf",
        "un"
      ],
      [
        "ig",
        "n"
      ],
      [
        "us",
        "ters"
      ],
      [
        "Ġst",
        "ore"
      ],
      [
        "Ġst",
        "andard"
      ],
      [
        "ĠA",
        "rtificial"
      ],
      [
        "ĠT",
        "h"
      ],
      [
        "Ġint",
        "o"
      ],
      [
        "ra",
        "m"
      ],
      [
        "ex",
        "t"
      ],
      [
        "Ġcon",
        "t"
      ],
      [
        "Ġcon",
        "sist"
      ],
      [
        "Ġrep",
        "lace"
      ],
      [
        "Ġstat",
        "ist"
      ],
      [
        "Ġinclu",
        "ding"
      ],
      [
        "Ġmulti",
        "ple"
      ],
      [
        "ĠD",
        "ot"
      ],
      [
        "Ġac",
        "ross"
      ],
      [
        "Ġsu",
        "ch"
      ],
      [
        "Ġdatabas",
        "es"
      ],
      [
        "Ġenab",
        "le"
      ],
      [
        "Ġenab",
        "les"
      ],
      [
        "Ġaut",
        "onom"
      ],
      [
        "Ġcl",
        "usters"
      ],
      [
        "Ġdecision",
        "s"
      ],
      [
        "Ġrecurr",
        "ent"
      ],
      [
        "Ġfocus",
        "es"
      ],
      [
        "Produ",
        "ct"
      ],
      [
        "Transform",
        "ers"
      ],
      [
        "Ve",
        "ctor"
      ],
      [
        "ac",
        "k"
      ],
      [
        "cor",
        "rection"
      ],
      [
        "Ġsem",
        "inal"
      ],
      [
        "Ġlay",
        "ers"
      ],
      [
        "Ġpip",
        "eline"
      ],
      [
        "Ġparall",
        "el"
      ],
      [
        "Ġfun",
        "ction"
      ],
      [
        "Ġconsist",
        "s"
      ],
      [
        "Ġstatist",
        "ical"
      ],
      [
        "Ġautonom",
        "ous"
      ]
    ]
  }
}